{
  "version": "1.0",
  "truncation": null,
  "padding": null,
  "added_tokens": [
    {
      "id": 0,
      "content": "[PAD]",
      "single_word": false,
      "lstrip": false,
      "rstrip": false,
      "normalized": false,
      "special": true
    },
    {
      "id": 1,
      "content": "[UNK]",
      "single_word": false,
      "lstrip": false,
      "rstrip": false,
      "normalized": false,
      "special": true
    },
    {
      "id": 2,
      "content": "[CLS]",
      "single_word": false,
      "lstrip": false,
      "rstrip": false,
      "normalized": false,
      "special": true
    },
    {
      "id": 3,
      "content": "[SEP]",
      "single_word": false,
      "lstrip": false,
      "rstrip": false,
      "normalized": false,
      "special": true
    },
    {
      "id": 4,
      "content": "[MASK]",
      "single_word": false,
      "lstrip": false,
      "rstrip": false,
      "normalized": false,
      "special": true
    }
  ],
  "normalizer": null,
  "pre_tokenizer": {
    "type": "ByteLevel",
    "add_prefix_space": false,
    "trim_offsets": true,
    "use_regex": true
  },
  "post_processor": null,
  "decoder": null,
  "model": {
    "type": "BPE",
    "dropout": null,
    "unk_token": "[UNK]",
    "continuing_subword_prefix": null,
    "end_of_word_suffix": null,
    "fuse_unk": false,
    "byte_fallback": false,
    "ignore_merges": false,
    "vocab": {
      "[PAD]": 0,
      "[UNK]": 1,
      "[CLS]": 2,
      "[SEP]": 3,
      "[MASK]": 4,
      "\"": 5,
      "'": 6,
      "(": 7,
      ")": 8,
      ",": 9,
      ".": 10,
      "0": 11,
      "1": 12,
      "2": 13,
      "3": 14,
      "4": 15,
      "5": 16,
      "6": 17,
      "7": 18,
      "8": 19,
      ":": 20,
      "A": 21,
      "B": 22,
      "C": 23,
      "D": 24,
      "E": 25,
      "G": 26,
      "H": 27,
      "K": 28,
      "M": 29,
      "N": 30,
      "O": 31,
      "P": 32,
      "S": 33,
      "T": 34,
      "U": 35,
      "W": 36,
      "a": 37,
      "b": 38,
      "c": 39,
      "d": 40,
      "e": 41,
      "f": 42,
      "g": 43,
      "h": 44,
      "i": 45,
      "j": 46,
      "k": 47,
      "l": 48,
      "m": 49,
      "n": 50,
      "o": 51,
      "p": 52,
      "r": 53,
      "s": 54,
      "t": 55,
      "u": 56,
      "v": 57,
      "y": 58,
      "z": 59,
      "§": 60,
      "°": 61,
      "±": 62,
      "¶": 63,
      "¼": 64,
      "Ã": 65,
      "Ä": 66,
      "Å": 67,
      "Ċ": 68,
      "č": 69,
      "Ġ": 70,
      "ŀ": 71,
      "Ł": 72,
      "Ä±": 73,
      "Ã¼": 74,
      "Ä±n": 75,
      "an": 76,
      "ÄŁ": 77,
      "čĊ": 78,
      "in": 79,
      "le": 80,
      "ar": 81,
      "Ġa": 82,
      "Ġk": 83,
      "de": 84,
      "ld": 85,
      "ÅŁ": 86,
      "ir": 87,
      "Ġb": 88,
      "Ġe": 89,
      "ma": 90,
      "Ã¼r": 91,
      "Ã§": 92,
      "ĠB": 93,
      "Ã¼z": 94,
      "er": 95,
      "ul": 96,
      "Ġs": 97,
      "li": 98,
      "lar": 99,
      "mÃ¼z": 100,
      "ran": 101,
      "°ran": 102,
      "Ä°ran": 103,
      "es": 104,
      "ĠH": 105,
      "Ã§Ä±": 106,
      "az": 107,
      "da": 108,
      "ĠA": 109,
      "Ġg": 110,
      "Ġy": 111,
      "ine": 112,
      "ĠaÃ§Ä±": 113,
      "Ã¼rmÃ¼z": 114,
      "la": 115,
      "oÄŁ": 116,
      "en": 117,
      "mi": 118,
      "ldÄ±": 119,
      "ab": 120,
      "di": 121,
      "ÄŁu": 122,
      "ler": 123,
      "oÄŁaz": 124,
      "aldÄ±": 125,
      "lma": 126,
      "st": 127,
      "sÄ±": 128,
      "Ġi": 129,
      "Ġo": 130,
      "Ġv": 131,
      "ĠÄ°ran": 132,
      "Ġek": 133,
      "ĠBoÄŁaz": 134,
      "lÄ±": 135,
      "rÄ±": 136,
      "sÄ±n": 137,
      "Ã¼n": 138,
      "ara": 139,
      "esine": 140,
      "ĠHÃ¼rmÃ¼z": 141,
      "Ġge": 142,
      "ĠBoÄŁazÄ±": 143,
      "el": 144,
      "nin": 145,
      "on": 146,
      "oo": 147,
      "Ġko": 148,
      "Mu": 149,
      "dÄ±": 150,
      "dan": 151,
      "ki": 152,
      "uÄŁu": 153,
      "Ã¶": 154,
      "Ġt": 155,
      "ÅŁul": 156,
      "Ġba": 157,
      "Ġbir": 158,
      "ĠsaldÄ±": 159,
      "larÄ±n": 160,
      "ĠaÃ§Ä±lma": 161,
      "Ġve": 162,
      "ĠkoÅŁul": 163,
      "Muh": 164,
      "me": 165,
      "or": 166,
      "omi": 167,
      "Ġ\"": 168,
      "ĠG": 169,
      "Ġh": 170,
      "ĠMuh": 171,
      "lduÄŁu": 172,
      "ĠolduÄŁu": 173,
      "Ġekon": 174,
      "ĠsaldÄ±rÄ±": 175,
      "Ġekonomi": 176,
      "26": 177,
      "AE": 178,
      "BD": 179,
      "HÃ¼rmÃ¼z": 180,
      "ak": 181,
      "ay": 182,
      "bb": 183,
      "ibb": 184,
      "kla": 185,
      "lan": 186,
      "mu": 187,
      "man": 188,
      "mesine": 189,
      "yi": 190,
      "yin": 191,
      "Ġ2": 192,
      "ĠÅŁ": 193,
      "ÄŁlÄ±": 194,
      "Ġkab": 195,
      "den": 196,
      "Ġet": 197,
      "ĠABD": 198,
      "Ġya": 199,
      "ĠbaÄŁlÄ±": 200,
      "ibbi": 201,
      "Ġkabul": 202,
      "08": 203,
      "026": 204,
      "14": 205,
      "TÃ¼r": 206,
      "ade": 207,
      "ber": 208,
      "et": 209,
      "for": 210,
      "fade": 211,
      "gle": 212,
      "loo": 213,
      "mber": 214,
      "nu": 215,
      "nÄ±n": 216,
      "os": 217,
      "pla": 218,
      "se": 219,
      "su": 220,
      "tfor": 221,
      "ya": 222,
      "ye": 223,
      "ĠD": 224,
      "Ġm": 225,
      "Ġli": 226,
      "Ġ14": 227,
      "Ġpla": 228,
      "Ä±nÄ±n": 229,
      "Ä±ndan": 230,
      "ÄŁÄ±": 231,
      "leyin": 232,
      "irle": 233,
      "Ġbel": 234,
      "mada": 235,
      "ĠBloo": 236,
      "lik": 237,
      "larÄ±": 238,
      "ĠHT": 239,
      "ĠAÄŁu": 240,
      "ĠaÃ§Ä±kla": 241,
      "leri": 242,
      "stesine": 243,
      "stos": 244,
      "Ġifade": 245,
      "Ġekleyin": 246,
      "sÄ±nÄ±n": 247,
      "Ġgemi": 248,
      "oogle": 249,
      "kiye": 250,
      "ĠaÃ§Ä±lmasÄ±": 251,
      "ĠGoogle": 252,
      "ĠMuhibbi": 253,
      "ĠolduÄŁunu": 254,
      "Ġ2026": 255,
      "TÃ¼rkiye": 256,
      "mberg": 257,
      "tformu": 258,
      "Ġlistesine": 259,
      "Ġplatformu": 260,
      "ĠBloomberg": 261,
      "ĠAÄŁustos": 262,
      "'d": 263,
      "DN": 264,
      "OC": 265,
      "af": 266,
      "al": 267,
      "at": 268,
      "ede": 269,
      "fÄ±ndan": 270,
      "ik": 271,
      "im": 272,
      "it": 273,
      "iz": 274,
      "iden": 275,
      "lg": 276,
      "lu": 277,
      "min": 278,
      "nÄ±": 279,
      "nda": 280,
      "ur": 281,
      "Ġara": 282,
      "ÄŁi": 283,
      "Ġait": 284,
      "Ġkay": 285,
      "ldi": 286,
      "Ġedi": 287,
      "ĠBAE": 288,
      "lara": 289,
      "Ġyen": 290,
      "aber": 291,
      "arafÄ±ndan": 292,
      "Ġgemin": 293,
      "ĠtarafÄ±ndan": 294,
      "larÄ±nÄ±": 295,
      "ĠaÃ§Ä±lmasÄ±nÄ±n": 296,
      "mek": 297,
      "Ġhede": 298,
      "manÄ±n": 299,
      "Ġetmesine": 300,
      "ĠaÃ§Ä±klamada": 301,
      "DNOC": 302,
      "Ġyeniden": 303,
      "Ġgeminin": 304,
      "Ġhedef": 305,
      "34": 306,
      "BAE": 307,
      "GÃ¼n": 308,
      "ca": 309,
      "ci": 310,
      "can": 311,
      "car": 312,
      "cel": 313,
      "dde": 314,
      "ev": 315,
      "eli": 316,
      "eler": 317,
      "fÃ¼z": 318,
      "iÅŁ": 319,
      "ili": 320,
      "icar": 321,
      "jan": 322,
      "ket": 323,
      "ol": 324,
      "pÄ±": 325,
      "re": 326,
      "rim": 327,
      "sine": 328,
      "ti": 329,
      "tir": 330,
      "tla": 331,
      "un": 332,
      "uz": 333,
      "ven": 334,
      "yÄ±": 335,
      "zlarÄ±": 336,
      "Ġ(": 337,
      "Ġ:": 338,
      "ĠT": 339,
      "ĠU": 340,
      "Ġd": 341,
      "Ġde": 342,
      "ĠmÃ¼z": 343,
      "ĠÃ¶": 344,
      "Ġ08": 345,
      "Ġmek": 346,
      "Ġcan": 347,
      "ĠfÃ¼z": 348,
      "Ä±lÄ±": 349,
      "Ä±zlarÄ±": 350,
      "Ã¼se": 351,
      "Ã¼ven": 352,
      "Ä±nÄ±": 353,
      "anlÄ±": 354,
      "aniz": 355,
      "ÄŁÄ±nÄ±": 356,
      "inde": 357,
      "len": 358,
      "let": 359,
      "leme": 360,
      "arÄ±": 361,
      "aruz": 362,
      "Ġak": 363,
      "Ġal": 364,
      "Ġay": 365,
      "Ġkul": 366,
      "ĠkaldÄ±": 367,
      "irket": 368,
      "ĠbÃ¶": 369,
      "masÄ±": 370,
      "ereler": 371,
      "Ġsa": 372,
      "Ġsor": 373,
      "esel": 374,
      "ĠADNOC": 375,
      "oÄŁr": 376,
      "enin": 377,
      "abi": 378,
      "diÄŁi": 379,
      "lmadÄ±": 380,
      "Ġist": 381,
      "ĠolmadÄ±": 382,
      "sÄ±na": 383,
      "Ã¼nÃ¼": 384,
      "Ġticar": 385,
      "Ġveya": 386,
      "ĠkoÅŁullarÄ±": 387,
      "ĠkoÅŁullarÄ±nÄ±": 388,
      "ĠMuhaf": 389,
      "ĠsaldÄ±rÄ±sÄ±": 390,
      "Ġekonomik": 391,
      "akereler": 392,
      "lanmanÄ±n": 393,
      "ĠyapÄ±": 394,
      "ĠDev": 395,
      "Ġmaruz": 396,
      "irleÅŁ": 397,
      "irlediÄŁi": 398,
      "Ġbelir": 399,
      "ĠbelirlediÄŁi": 400,
      "Ġgemileri": 401,
      "Ġgemisine": 402,
      "Ġkayb": 403,
      "aberde": 404,
      "GÃ¼ncel": 405,
      "ĠmÃ¼zakereler": 406,
      "Ġmekaniz": 407,
      "ĠfÃ¼zeli": 408,
      "ĠbÃ¶lg": 409,
      "Ġsorul": 410,
      "Ġticari": 411,
      "ĠMuhafÄ±zlarÄ±": 412,
      "ĠDevrim": 413,
      "GÃ¼ncelleme": 414,
      "Ġmekanizma": 415
    },
    "merges": [
      [
        "Ä",
        "±"
      ],
      [
        "Ã",
        "¼"
      ],
      [
        "Ä±",
        "n"
      ],
      [
        "a",
        "n"
      ],
      [
        "Ä",
        "Ł"
      ],
      [
        "č",
        "Ċ"
      ],
      [
        "i",
        "n"
      ],
      [
        "l",
        "e"
      ],
      [
        "a",
        "r"
      ],
      [
        "Ġ",
        "a"
      ],
      [
        "Ġ",
        "k"
      ],
      [
        "d",
        "e"
      ],
      [
        "l",
        "d"
      ],
      [
        "Å",
        "Ł"
      ],
      [
        "i",
        "r"
      ],
      [
        "Ġ",
        "b"
      ],
      [
        "Ġ",
        "e"
      ],
      [
        "m",
        "a"
      ],
      [
        "Ã¼",
        "r"
      ],
      [
        "Ã",
        "§"
      ],
      [
        "Ġ",
        "B"
      ],
      [
        "Ã¼",
        "z"
      ],
      [
        "e",
        "r"
      ],
      [
        "u",
        "l"
      ],
      [
        "Ġ",
        "s"
      ],
      [
        "l",
        "i"
      ],
      [
        "l",
        "ar"
      ],
      [
        "m",
        "Ã¼z"
      ],
      [
        "r",
        "an"
      ],
      [
        "°",
        "ran"
      ],
      [
        "Ä",
        "°ran"
      ],
      [
        "e",
        "s"
      ],
      [
        "Ġ",
        "H"
      ],
      [
        "Ã§",
        "Ä±"
      ],
      [
        "a",
        "z"
      ],
      [
        "d",
        "a"
      ],
      [
        "Ġ",
        "A"
      ],
      [
        "Ġ",
        "g"
      ],
      [
        "Ġ",
        "y"
      ],
      [
        "in",
        "e"
      ],
      [
        "Ġa",
        "Ã§Ä±"
      ],
      [
        "Ã¼r",
        "mÃ¼z"
      ],
      [
        "l",
        "a"
      ],
      [
        "o",
        "ÄŁ"
      ],
      [
        "e",
        "n"
      ],
      [
        "m",
        "i"
      ],
      [
        "ld",
        "Ä±"
      ],
      [
        "a",
        "b"
      ],
      [
        "d",
        "i"
      ],
      [
        "ÄŁ",
        "u"
      ],
      [
        "le",
        "r"
      ],
      [
        "oÄŁ",
        "az"
      ],
      [
        "a",
        "ldÄ±"
      ],
      [
        "l",
        "ma"
      ],
      [
        "s",
        "t"
      ],
      [
        "s",
        "Ä±"
      ],
      [
        "Ġ",
        "i"
      ],
      [
        "Ġ",
        "o"
      ],
      [
        "Ġ",
        "v"
      ],
      [
        "Ġ",
        "Ä°ran"
      ],
      [
        "Ġe",
        "k"
      ],
      [
        "ĠB",
        "oÄŁaz"
      ],
      [
        "l",
        "Ä±"
      ],
      [
        "r",
        "Ä±"
      ],
      [
        "s",
        "Ä±n"
      ],
      [
        "Ã¼",
        "n"
      ],
      [
        "ar",
        "a"
      ],
      [
        "es",
        "ine"
      ],
      [
        "ĠH",
        "Ã¼rmÃ¼z"
      ],
      [
        "Ġg",
        "e"
      ],
      [
        "ĠBoÄŁaz",
        "Ä±"
      ],
      [
        "e",
        "l"
      ],
      [
        "n",
        "in"
      ],
      [
        "o",
        "n"
      ],
      [
        "o",
        "o"
      ],
      [
        "Ġk",
        "o"
      ],
      [
        "M",
        "u"
      ],
      [
        "d",
        "Ä±"
      ],
      [
        "d",
        "an"
      ],
      [
        "k",
        "i"
      ],
      [
        "u",
        "ÄŁu"
      ],
      [
        "Ã",
        "¶"
      ],
      [
        "Ġ",
        "t"
      ],
      [
        "ÅŁ",
        "ul"
      ],
      [
        "Ġb",
        "a"
      ],
      [
        "Ġb",
        "ir"
      ],
      [
        "Ġs",
        "aldÄ±"
      ],
      [
        "lar",
        "Ä±n"
      ],
      [
        "ĠaÃ§Ä±",
        "lma"
      ],
      [
        "Ġv",
        "e"
      ],
      [
        "Ġko",
        "ÅŁul"
      ],
      [
        "Mu",
        "h"
      ],
      [
        "m",
        "e"
      ],
      [
        "o",
        "r"
      ],
      [
        "o",
        "mi"
      ],
      [
        "Ġ",
        "\""
      ],
      [
        "Ġ",
        "G"
      ],
      [
        "Ġ",
        "h"
      ],
      [
        "Ġ",
        "Muh"
      ],
      [
        "ld",
        "uÄŁu"
      ],
      [
        "Ġo",
        "lduÄŁu"
      ],
      [
        "Ġek",
        "on"
      ],
      [
        "ĠsaldÄ±",
        "rÄ±"
      ],
      [
        "Ġekon",
        "omi"
      ],
      [
        "2",
        "6"
      ],
      [
        "A",
        "E"
      ],
      [
        "B",
        "D"
      ],
      [
        "H",
        "Ã¼rmÃ¼z"
      ],
      [
        "a",
        "k"
      ],
      [
        "a",
        "y"
      ],
      [
        "b",
        "b"
      ],
      [
        "i",
        "bb"
      ],
      [
        "k",
        "la"
      ],
      [
        "l",
        "an"
      ],
      [
        "m",
        "u"
      ],
      [
        "m",
        "an"
      ],
      [
        "m",
        "esine"
      ],
      [
        "y",
        "i"
      ],
      [
        "y",
        "in"
      ],
      [
        "Ġ",
        "2"
      ],
      [
        "Ġ",
        "ÅŁ"
      ],
      [
        "ÄŁ",
        "lÄ±"
      ],
      [
        "Ġk",
        "ab"
      ],
      [
        "de",
        "n"
      ],
      [
        "Ġe",
        "t"
      ],
      [
        "ĠA",
        "BD"
      ],
      [
        "Ġy",
        "a"
      ],
      [
        "Ġba",
        "ÄŁlÄ±"
      ],
      [
        "ibb",
        "i"
      ],
      [
        "Ġkab",
        "ul"
      ],
      [
        "0",
        "8"
      ],
      [
        "0",
        "26"
      ],
      [
        "1",
        "4"
      ],
      [
        "T",
        "Ã¼r"
      ],
      [
        "a",
        "de"
      ],
      [
        "b",
        "er"
      ],
      [
        "e",
        "t"
      ],
      [
        "f",
        "or"
      ],
      [
        "f",
        "ade"
      ],
      [
        "g",
        "le"
      ],
      [
        "l",
        "oo"
      ],
      [
        "m",
        "ber"
      ],
      [
        "n",
        "u"
      ],
      [
        "n",
        "Ä±n"
      ],
      [
        "o",
        "s"
      ],
      [
        "p",
        "la"
      ],
      [
        "s",
        "e"
      ],
      [
        "s",
        "u"
      ],
      [
        "t",
        "for"
      ],
      [
        "y",
        "a"
      ],
      [
        "y",
        "e"
      ],
      [
        "Ġ",
        "D"
      ],
      [
        "Ġ",
        "m"
      ],
      [
        "Ġ",
        "li"
      ],
      [
        "Ġ",
        "14"
      ],
      [
        "Ġ",
        "pla"
      ],
      [
        "Ä±n",
        "Ä±n"
      ],
      [
        "Ä±n",
        "dan"
      ],
      [
        "ÄŁ",
        "Ä±"
      ],
      [
        "le",
        "yin"
      ],
      [
        "ir",
        "le"
      ],
      [
        "Ġb",
        "el"
      ],
      [
        "ma",
        "da"
      ],
      [
        "ĠB",
        "loo"
      ],
      [
        "li",
        "k"
      ],
      [
        "lar",
        "Ä±"
      ],
      [
        "ĠH",
        "T"
      ],
      [
        "ĠA",
        "ÄŁu"
      ],
      [
        "ĠaÃ§Ä±",
        "kla"
      ],
      [
        "ler",
        "i"
      ],
      [
        "st",
        "esine"
      ],
      [
        "st",
        "os"
      ],
      [
        "Ġi",
        "fade"
      ],
      [
        "Ġek",
        "leyin"
      ],
      [
        "sÄ±n",
        "Ä±n"
      ],
      [
        "Ġge",
        "mi"
      ],
      [
        "oo",
        "gle"
      ],
      [
        "ki",
        "ye"
      ],
      [
        "ĠaÃ§Ä±lma",
        "sÄ±"
      ],
      [
        "ĠG",
        "oogle"
      ],
      [
        "ĠMuh",
        "ibbi"
      ],
      [
        "ĠolduÄŁu",
        "nu"
      ],
      [
        "Ġ2",
        "026"
      ],
      [
        "TÃ¼r",
        "kiye"
      ],
      [
        "mber",
        "g"
      ],
      [
        "tfor",
        "mu"
      ],
      [
        "Ġli",
        "stesine"
      ],
      [
        "Ġpla",
        "tformu"
      ],
      [
        "ĠBloo",
        "mberg"
      ],
      [
        "ĠAÄŁu",
        "stos"
      ],
      [
        "'",
        "d"
      ],
      [
        "D",
        "N"
      ],
      [
        "O",
        "C"
      ],
      [
        "a",
        "f"
      ],
      [
        "a",
        "l"
      ],
      [
        "a",
        "t"
      ],
      [
        "e",
        "de"
      ],
      [
        "f",
        "Ä±ndan"
      ],
      [
        "i",
        "k"
      ],
      [
        "i",
        "m"
      ],
      [
        "i",
        "t"
      ],
      [
        "i",
        "z"
      ],
      [
        "i",
        "den"
      ],
      [
        "l",
        "g"
      ],
      [
        "l",
        "u"
      ],
      [
        "m",
        "in"
      ],
      [
        "n",
        "Ä±"
      ],
      [
        "n",
        "da"
      ],
      [
        "u",
        "r"
      ],
      [
        "Ġ",
        "ara"
      ],
      [
        "ÄŁ",
        "i"
      ],
      [
        "Ġa",
        "it"
      ],
      [
        "Ġk",
        "ay"
      ],
      [
        "ld",
        "i"
      ],
      [
        "Ġe",
        "di"
      ],
      [
        "ĠB",
        "AE"
      ],
      [
        "lar",
        "a"
      ],
      [
        "Ġy",
        "en"
      ],
      [
        "ab",
        "er"
      ],
      [
        "ara",
        "fÄ±ndan"
      ],
      [
        "Ġge",
        "min"
      ],
      [
        "Ġt",
        "arafÄ±ndan"
      ],
      [
        "larÄ±n",
        "Ä±"
      ],
      [
        "ĠaÃ§Ä±lma",
        "sÄ±nÄ±n"
      ],
      [
        "me",
        "k"
      ],
      [
        "Ġh",
        "ede"
      ],
      [
        "man",
        "Ä±n"
      ],
      [
        "Ġet",
        "mesine"
      ],
      [
        "ĠaÃ§Ä±kla",
        "mada"
      ],
      [
        "DN",
        "OC"
      ],
      [
        "Ġyen",
        "iden"
      ],
      [
        "Ġgemin",
        "in"
      ],
      [
        "Ġhede",
        "f"
      ],
      [
        "3",
        "4"
      ],
      [
        "B",
        "AE"
      ],
      [
        "G",
        "Ã¼n"
      ],
      [
        "c",
        "a"
      ],
      [
        "c",
        "i"
      ],
      [
        "c",
        "an"
      ],
      [
        "c",
        "ar"
      ],
      [
        "c",
        "el"
      ],
      [
        "d",
        "de"
      ],
      [
        "e",
        "v"
      ],
      [
        "e",
        "li"
      ],
      [
        "e",
        "ler"
      ],
      [
        "f",
        "Ã¼z"
      ],
      [
        "i",
        "ÅŁ"
      ],
      [
        "i",
        "li"
      ],
      [
        "i",
        "car"
      ],
      [
        "j",
        "an"
      ],
      [
        "k",
        "et"
      ],
      [
        "o",
        "l"
      ],
      [
        "p",
        "Ä±"
      ],
      [
        "r",
        "e"
      ],
      [
        "r",
        "im"
      ],
      [
        "s",
        "ine"
      ],
      [
        "t",
        "i"
      ],
      [
        "t",
        "ir"
      ],
      [
        "t",
        "la"
      ],
      [
        "u",
        "n"
      ],
      [
        "u",
        "z"
      ],
      [
        "v",
        "en"
      ],
      [
        "y",
        "Ä±"
      ],
      [
        "z",
        "larÄ±"
      ],
      [
        "Ġ",
        "("
      ],
      [
        "Ġ",
        ":"
      ],
      [
        "Ġ",
        "T"
      ],
      [
        "Ġ",
        "U"
      ],
      [
        "Ġ",
        "d"
      ],
      [
        "Ġ",
        "de"
      ],
      [
        "Ġ",
        "mÃ¼z"
      ],
      [
        "Ġ",
        "Ã¶"
      ],
      [
        "Ġ",
        "08"
      ],
      [
        "Ġ",
        "mek"
      ],
      [
        "Ġ",
        "can"
      ],
      [
        "Ġ",
        "fÃ¼z"
      ],
      [
        "Ä±",
        "lÄ±"
      ],
      [
        "Ä±",
        "zlarÄ±"
      ],
      [
        "Ã¼",
        "se"
      ],
      [
        "Ã¼",
        "ven"
      ],
      [
        "Ä±n",
        "Ä±"
      ],
      [
        "an",
        "lÄ±"
      ],
      [
        "an",
        "iz"
      ],
      [
        "ÄŁ",
        "Ä±nÄ±"
      ],
      [
        "in",
        "de"
      ],
      [
        "le",
        "n"
      ],
      [
        "le",
        "t"
      ],
      [
        "le",
        "me"
      ],
      [
        "ar",
        "Ä±"
      ],
      [
        "ar",
        "uz"
      ],
      [
        "Ġa",
        "k"
      ],
      [
        "Ġa",
        "l"
      ],
      [
        "Ġa",
        "y"
      ],
      [
        "Ġk",
        "ul"
      ],
      [
        "Ġk",
        "aldÄ±"
      ],
      [
        "ir",
        "ket"
      ],
      [
        "Ġb",
        "Ã¶"
      ],
      [
        "ma",
        "sÄ±"
      ],
      [
        "er",
        "eler"
      ],
      [
        "Ġs",
        "a"
      ],
      [
        "Ġs",
        "or"
      ],
      [
        "es",
        "el"
      ],
      [
        "ĠA",
        "DNOC"
      ],
      [
        "oÄŁ",
        "r"
      ],
      [
        "en",
        "in"
      ],
      [
        "ab",
        "i"
      ],
      [
        "di",
        "ÄŁi"
      ],
      [
        "lma",
        "dÄ±"
      ],
      [
        "Ġi",
        "st"
      ],
      [
        "Ġo",
        "lmadÄ±"
      ],
      [
        "sÄ±n",
        "a"
      ],
      [
        "Ã¼n",
        "Ã¼"
      ],
      [
        "Ġt",
        "icar"
      ],
      [
        "Ġve",
        "ya"
      ],
      [
        "ĠkoÅŁul",
        "larÄ±"
      ],
      [
        "ĠkoÅŁul",
        "larÄ±nÄ±"
      ],
      [
        "ĠMuh",
        "af"
      ],
      [
        "ĠsaldÄ±rÄ±",
        "sÄ±"
      ],
      [
        "Ġekonomi",
        "k"
      ],
      [
        "ak",
        "ereler"
      ],
      [
        "lan",
        "manÄ±n"
      ],
      [
        "Ġya",
        "pÄ±"
      ],
      [
        "ĠD",
        "ev"
      ],
      [
        "Ġm",
        "aruz"
      ],
      [
        "irle",
        "ÅŁ"
      ],
      [
        "irle",
        "diÄŁi"
      ],
      [
        "Ġbel",
        "ir"
      ],
      [
        "Ġbel",
        "irlediÄŁi"
      ],
      [
        "Ġgemi",
        "leri"
      ],
      [
        "Ġgemi",
        "sine"
      ],
      [
        "Ġkay",
        "b"
      ],
      [
        "aber",
        "de"
      ],
      [
        "GÃ¼n",
        "cel"
      ],
      [
        "ĠmÃ¼z",
        "akereler"
      ],
      [
        "Ġmek",
        "aniz"
      ],
      [
        "ĠfÃ¼z",
        "eli"
      ],
      [
        "ĠbÃ¶",
        "lg"
      ],
      [
        "Ġsor",
        "ul"
      ],
      [
        "Ġticar",
        "i"
      ],
      [
        "ĠMuhaf",
        "Ä±zlarÄ±"
      ],
      [
        "ĠDev",
        "rim"
      ],
      [
        "GÃ¼ncel",
        "leme"
      ],
      [
        "Ġmekaniz",
        "ma"
      ]
    ]
  }
}